<unk> 0
<s> 1
</s> 2
▁ 3
, 4
d 5
▁the 6
s 7
. 8
▁" 9
▁Swift 10
ed 11
". 12
' 13
▁on 14
▁( 15
▁Ret 16
l 17
r 18
and 19
▁of 20
y 21
Taylor 22
▁origina 23
ing 24
▁A 25
ve 26
▁f 27
rom 28
ember 29
▁to 30
▁2 31
▁in 32
▁a 33
- 34
ieve 35
▁Taylor 36
). 37
▁her 38
▁The 39
: 40
ary 41
ober 42
om 43
▁for 44
▁1 45
▁Billboard 46
rchi 47
▁fr 48
▁2023. 49
e 50
h 51
al 52
▁S 53
▁with 54
t 55
▁December 56
▁Re 57
iev 58
▁Arc 59
" 60
▁Nov 61
ive 62
▁2022. 63
v 64
▁' 65
▁2021. 66
▁August 67
▁Oct 68
9, 69
▁2012. 70
ril 71
▁Jul 72
▁Music 73
▁at 74
ept 75
▁an 76
8, 77
rch 78
▁as 79
rie 80
▁2016. 81
▁2020. 82
ch 83
▁June 84
▁May 85
▁Ap 86
7, 87
▁2015. 88
Nov 89
▁was 90
▁2019. 91
▁She 92
▁she 93
u 94
▁New 95
▁21 96
▁by 97
▁Jan 98
Oct 99
ly 100
▁music 101
▁origin 102
a 103
▁album 104
3, 105
▁Awards 106
4, 107
▁In 108
6, 109
▁Stone 110
▁Tour 111
▁2023) 112
▁11 113
st 114
hi 115
ri 116
bru 117
▁R 118
▁Year 119
The 120
▁is 121
▁Roll 122
▁Ar 123
) 124
n 125
13, 126
▁C 127
ru 128
trie 129
th 130
December 131
▁2023 132
5, 133
", 134
▁that 135
iv 136
▁14, 137
▁Is 138
▁2019 139
▁Her 140
2, 141
▁Ho 142
▁first 143
S 144
▁2022). 145
▁Country 146
an 147
▁2017. 148
▁20 149
10, 150
▁Fe 151
er 152
w 153
uar 154
▁6, 155
▁18 156
▁Album 157
▁30 158
23, 159
eve 160
▁With 161
▁country 162
o 163
▁T 164
; 165
12, 166
▁US 167
es 168
on 169
▁pop 170
▁No 171
▁Time 172
has 173
▁Feb 174
▁25, 175
▁2013. 176
▁Ma 177
19, 178
en 179
▁whi 180
▁Award 181
A 182
– 183
▁ha 184
17, 185
▁2009 186
▁albums 187
August 188
Jul 189
▁be 190
in 191
▁American 192
▁News 193
▁100 194
▁artist 195
▁release 196
▁Video 197
▁F 198
9] 199
▁15 200
▁Times 201
▁I 202
▁million 203
▁number 204
▁Nashville 205
2020). 206
▁p 207
▁2024. 208
▁most 209
American 210
▁2015 211
▁Record 212
▁All 213
▁G 214
▁Now 215
▁Grammy 216
▁Best 217
June 218
▁10 219
▁31 220
▁co 221
tr 222
▁York 223
& 224
▁200 225
▁songs 226
▁single 227
▁B 228
Ap 229
▁World 230
▁Top 231
▁Eras 232
▁It 233
ie 234
Jan 235
▁22 236
ale 237
.[1 238
▁one 239
▁Chart 240
▁tour 241
▁won 242
▁2017 243
▁2018. 244
ce 245
▁V 246
▁Marc 247
▁24 248
chi 249
▁16 250
▁Version 251
ic 252
or 253
0] 254
▁2010 255
3] 256
▁2020 257
2021). 258
5] 259
▁O 260
▁Chris 261
est 262
▁record 263
I 264
▁re 265
▁M 266
to 267
4] 268
▁1989 269
▁top 270
peak 271
▁You 272
▁E 273
▁Artist 274
ke 275
▁$1 276
.[ 277
▁2014. 278
▁Reputation 279
Marc 280
▁s 281
m 282
8] 283
▁Forbes 284
1] 285
le 286
at 287
i 288
2014). 289
one 290
▁song 291
6] 292
▁CMT 293
ev 294
nd 295
May 296
▁Ha 297
▁MTV 298
▁over 299
▁Fearless 300
▁Pop 301
▁2016 302
▁Tennessee 303
▁Week 304
▁Keith 305
▁Variety 306
▁chart 307
▁Ju 308
more 309
▁W 310
▁Records 311
▁t 312
▁Association 313
▁2010. 314
re 315
▁also 316
▁Midnights 317
2] 318
▁D 319
▁Co 320
▁Guardian 321
▁highest 322
▁Great 323
▁2024 324
▁new 325
▁13 326
me 327
▁P 328
ual 329
ir 330
▁Red 331
▁are 332
▁27 333
Ho 334
▁receive 335
▁help 336
▁fem 337
▁People 338
▁Joe 339
▁2012) 340
▁Ann 341
▁four 342
▁2014 343
the 344
▁Me 345
il 346
te 347
2018). 348
▁2008 349
▁artists 350
▁singer 351
▁L 352
.[2 353
▁w 354
field 355
▁two 356
▁open 357
▁To 358
▁2013 359
were 360
▁do 361
is 362
▁Big 363
B 364
▁singles 365
▁2021 366
▁film 367
Wh 368
se 369
ity 370
▁donate 371
io 372
▁2011. 373
▁Willman 374
tri 375
▁At 376
▁For 377
▁First 378
▁includ 379
ies 380
f 381
▁2009. 382
▁video 383
▁Song 384
its 385
▁Songwriter 386
▁Be 387
▁History 388
▁Angel 389
▁women 390
▁name 391
▁West 392
son 393
▁this 394
▁Wh 395
▁c 396
▁Los 397
▁Folklore 398
▁List 399
etr 400
7] 401
Global 402
▁act 403
You 404
▁stud 405
▁H 406
▁Songwriters 407
▁Lover 408
▁K 409
▁Cau 410
▁De 411
▁it 412
? 413
▁Li 414
▁Review 415
.[5 416
p 417
▁list 418
▁Spotify 419
▁Machine 420
▁Story 421
▁career 422
▁three 423
O 424
▁concert 425
▁Debut 426
aid 427
▁Daily 428
▁Al 429
▁after 430
ther 431
Feb 432
▁beca 433
▁star 434
c 435
▁perform 436
▁On 437
▁wh 438
ers 439
Fe 440
! 441
▁U 442
▁ma 443
T 444
▁Pennsylvania 445
▁review 446
P 447
▁2011 448
Today 449
▁hav 450
man 451
Ma 452
▁year 453
ten 454
ey 455
ack 456
tion 457
it 458
▁Mar 459
▁Ka 460
na 461
▁other 462
▁2012 463
F 464
▁Make 465
as 466
fter 467
▁describe 468
▁sales 469
ck 470
▁Academy 471
▁2023, 472
ment 473
.[3 474
▁Most 475
▁m 476
woman 477
et 478
▁media 479
▁Win 480
▁Songs 481
▁Live 482
▁g 483
▁Tru 484
▁Charts 485
▁Star 486
g 487
z 488
ood 489
▁so 490
▁who 491
▁17 492
▁li 493
▁success 494
▁songwriting 495
▁industry 496
▁people 497
▁Person 498
▁BBC 499
▁than 500
C 501
▁Se 502
▁not 503
▁More 504
▁Wiki 505
▁rock 506
▁Up 507
▁Weekly 508
▁Film 509
▁Break 510
ll 511
ley 512
ps 513
.[4 514
▁So 515
▁work 516
ar 517
D 518
▁or 519
out 520
▁Power 521
— 522
gross 523
▁all 524
hat 525
▁time 526
▁201 527
ist 528
ful 529
▁guitar 530
▁lyrics 531
▁Entertainment 532
▁history 533
▁Media 534
▁Well 535
▁Jon 536
▁That 537
▁Rob 538
▁John 539
▁world 540
▁Paul 541
▁Yorker 542
ritics 543
H 544
um 545
ust 546
▁One 547
▁La 548
▁critics 549
ting 550
called 551
gle 552
ro 553
▁Sta 554
▁years 555
ould 556
▁2008. 557
▁Too 558
0 559
▁Ca 560
▁critic 561
▁2011) 562
but 563
▁b 564
▁An 565
▁J 566
▁Man 567
▁2007 568
year 569
▁2018 570
ite 571
▁Kat 572
▁N 573
ig 574
▁Do 575
▁we 576
ter 577
▁St 578
ium 579
▁ever 580
ling 581
▁Ne 582
▁five 583
ation 584
▁win 585
graph 586
ance 587
ina 588
k 589
com 590
▁NPR 591
▁Business 592
▁honor 593
▁again 594
Blog 595
▁Decade 596
▁debut 597
▁six 598
▁how 599
▁Fame 600
▁reach 601
▁bo 602
▁3 603
ight 604
▁musician 605
▁Over 606
came 607
N 608
▁play 609
ant 610
ut 611
▁lead 612
▁Ro 613
▁12 614
▁musicians 615
▁Evermore 616
de 617
▁singers 618
▁Jo 619
ift 620
▁Le 621
ous 622
ized 623
able 624
▁up 625
▁day 626
▁praise 627
ye 628
▁— 629
b 630
ne 631
E 632
20, 633
,[4 634
▁And 635
ts 636
▁younge 637
Lover 638
,[1 639
▁As 640
ia 641
▁abo 642
▁Albums 643
▁Bigge 644
▁Sam 645
] 646
top 647
▁My 648
ton 649
▁Ja 650
ent 651
▁sign 652
▁19 653
▁you 654
ian 655
▁Tele 656
▁2007. 657
▁School 658
▁Industry 659
▁winners 660
▁Million 661
▁National 662
▁writing 663
▁voice 664
▁Vox 665
▁Scott 666
▁second 667
Official 668
ified 669
▁Tim 670
▁Interview 671
▁Andre 672
▁know 673
▁streaming 674
etri 675
▁fans 676
▁Gui 677
▁Globe 678
x 679
▁Am 680
▁Fem 681
1 682
ish 683
Our 684
▁Mo 685
▁out 686
▁Kan 687
21 688
?" 689
▁own 690
▁Tom 691
aste 692
ade 693
▁Artists 694
40 695
▁v 696
▁Di 697
ick 698
▁2022 699
us 700
record 701
data 702
▁sing 703
All 704
ry 705
▁j 706
00,000 707
age 708
▁Po 709
▁vocal 710
▁mak 711
2 712
▁peak 713
▁influence 714
▁23 715
▁week 716
Red 717
our 718
▁Australia 719
▁Day 720
▁folk 721
▁McCartney 722
▁McGraw 723
▁Pitchfork 724
▁Michael 725
▁radio 726
▁Movie 727
▁better 728
▁fifth 729
nness 730
▁Sara 731
▁Reading 732
▁Lynch 733
M 734
▁Name 735
▁Made 736
▁Long 737
▁America 738
W 739
▁NME 740
▁Origin 741
▁Hannah 742
▁Were 743
▁IS 744
▁inspir 745
ra 746
▁Press 747
▁Sales 748
▁under 749
▁performances 750
▁Golden 751
▁Davi 752
elling 753
▁Hal 754
ments 755
ated 756
▁vocals 757
cal 758
ber 759
▁Edit 760
▁wins 761
▁live 762
▁some 763
,[5 764
▁songwriter 765
are 766
▁wrote 767
▁28 768
10 769
▁beg 770
ion 771
ple 772
ur 773
New 774
Artist 775
ggest 776
songwriter 777
▁Bi 778
V 779
bi 780
▁Inc 781
Love 782
▁say 783
century 784
pop 785
Reputation 786
stream 787
ney 788
▁Ba 789
Record 790
▁Sha 791
▁Hi 792
▁Journal 793
ng 794
cording 795
▁Bri 796
cle 797
el 798
▁cover 799
▁label 800
,000 801
▁(2020) 802
4 803
R 804
▁cultur 805
▁Years 806
▁write 807
uring 808
▁2006 809
▁Brittany 810
▁English 811
▁Pollstar 812
▁soundtrack 813
▁discography 814
▁Icon 815
▁Together 816
▁Alex 817
▁market 818
▁Harris 819
▁life 820
▁Wikipedia 821
▁generation 822
▁Blood 823
▁subject 824
▁Parton 825
▁Short 826
▁Constan 827
▁article 828
▁Life 829
▁Nick 830
▁Down 831
▁story 832
▁Help 833
▁Emmy 834
▁George 835
▁pro 836
▁image 837
▁City 838
▁sold 839
▁main 840
▁through 841
▁Universal 842
▁Musicians 843
▁millennial 844
▁Says 845
▁Will 846
▁best 847
▁Join 848
▁become 849
▁Winners 850
tz 851
▁awards 852
▁styles 853
Ba 854
3 855
▁Of 856
▁subse 857
▁his 858
▁Have 859
▁ra 860
▁Ali 861
▁Singer 862
cent 863
▁Post 864
▁14 865
▁We 866
▁stream 867
▁go 868
▁Grad 869
▁Ra 870
▁Da 871
▁Pa 872
▁Abou 873
all 874
▁Out 875
ver 876
nt 877
line 878
▁songwriters 879
pie 880
▁Wom 881
stin 882
ted 883
▁Us 884
▁Than 885
gan 886
L 887
▁h 888
5 889
rs 890
ital 891
G 892
read 893
▁Are 894
.[16 895
way 896
▁Gar 897
day 898
.[6 899
ff 900
ania 901
arious 902
[ 903
▁su 904
Watch 905
Eras 906
▁Ta 907
Time 908
wrote 909
▁Doll 910
▁Un 911
▁i 912
▁pr 913
new 914
▁Brit 915
▁Car 916
), 917
News 918
songwriters 919
▁7 920
▁come 921
ate 922
ay 923
▁Hu 924
.[32 925
▁track 926
▁director 927
actor 928
ong 929
een 930
row 931
▁earn 932
0, 933
▁Tr 934
▁global 935
▁Urban 936
▁Flatts 937
▁Group 938
▁Emily 939
▁Sheffield 940
▁explore 941
Cardigan 942
▁Release 943
▁relationship 944
Malley 945
▁Performance 946
▁Honor 947
▁Sessions 948
▁Concert 949
▁child 950
▁descent 951
▁impact 952
▁mother 953
▁guitarists 954
▁James 955
▁UK 956
▁information 957
▁Vocal 958
▁(2017) 959
▁Bob 960
▁where 961
▁sound 962
cert 963
▁Announce 964
▁Rose 965
▁jet 966
▁Hill 967
▁Rosen 968
document 969
elevision 970
▁early 971
9][5 972
▁deal 973
▁show 974
▁Heart 975
▁Open 976
▁Women 977
▁popular 978
tal 979
▁want 980
▁producers 981
ivate 982
▁give 983
▁emotional 984
▁Unit 985
arch 986
▁Sony 987
▁High 988
▁Americana 989
▁White 990
▁real 991
▁rank 992
▁King 993
ica 994
ists 995
my 996
▁attend 997
▁'1989 998
ble 999
▁Kre 1000
▁soci 1001
eph 1002
▁times 1003
▁Sing 1004
▁$ 1005
▁Van 1006
▁Pay 1007
▁way 1008
▁lea 1009
▁person 1010
8 1011
old 1012
▁5 1013
cause 1014
▁old 1015
!" 1016
light 1017
ender 1018
ire 1019
5][3 1020
▁Dur 1021
▁feature 1022
▁th 1023
que 1024
▁Gre 1025
7 1026
ally 1027
▁age 1028
stage 1029
9 1030
▁Far 1031
".[3 1032
ture 1033
former 1034
27] 1035
[1 1036
▁gross 1037
▁Ea 1038
,[6 1039
▁Z 1040
ard 1041
▁Move 1042
▁Th 1043
47] 1044
▁d 1045
▁Ed 1046
▁vi 1047
▁make 1048
Billboard 1049
▁era 1050
Every 1051
▁dat 1052
Ju 1053
note 1054
head 1055
▁Con 1056
ow 1057
▁Ben 1058
1][3 1059
▁Dan 1060
.[26 1061
Country 1062
She 1063
qu 1064
▁featur 1065
,[ 1066
pp 1067
Post 1068
Pop 1069
self 1070
Evermore 1071
.[19 1072
▁Get 1073
public 1074
mong 1075
▁ab 1076
ns 1077
ulture 1078
her 1079
▁promote 1080
▁Ken 1081
7. 1082
by 1083
▁every 1084
▁me 1085
be 1086
ction 1087
att 1088
▁sp 1089
▁di 1090
▁100, 1091
▁atten 1092
ides 1093
▁style 1094
full 1095
ake 1096
▁Sp 1097
▁support 1098
▁award 1099
▁genre 1100
▁ex 1101
op 1102
long 1103
▁Wa 1104
▁Tennesse 1105
La 1106
pes 1107
▁note 1108
▁any 1109
Discography 1110
positions 1111
▁Amazon 1112
▁Bloomberg 1113
▁Foundation 1114
▁International 1115
▁McNutt 1116
▁Rihanna 1117
▁Springsteen 1118
▁catalog 1119
▁different 1120
▁entertainer 1121
▁Philadelphia 1122
:10.10 1123
▁(2022) 1124
▁banjo 1125
▁billion 1126
▁Project 1127
▁Atlant 1128
▁Daniel 1129
▁Montana 1130
▁Sheeran 1131
▁highlight 1132
▁Museum 1133
▁entries 1134
▁surpass 1135
▁Alwyn 1136
broke 1137
▁Jonath 1138
▁relief 1139
▁sexual 1140
▁home 1141
▁Collaboration 1142
▁Faith 1143
▁Sexual 1144
▁Billion 1145
▁Summer 1146
▁status 1147
▁remark 1148
▁Yah 1149
▁Show 1150
▁Ryan 1151
▁Insider 1152
▁Elle 1153
▁solo 1154
▁credit 1155
Mean 1156
▁Mu 1157
▁Dead 1158
▁(2010) 1159
▁(2019) 1160
▁Town 1161
ID 1162
▁Jack 1163
Photo 1164
▁Store 1165
▁nominations 1166
▁father 1167
▁Off 1168
▁Stre 1169
▁Tog 1170
End 1171
▁Australian 1172
▁among 1173
quire 1174
▁Publishing 1175
▁Solo 1176
▁Good 1177
▁part 1178
▁publish 1179
lity 1180
▁model 1181
▁VMAs 1182
ollow 1183
▁Mark 1184
▁executive 1185
▁free 1186
▁last 1187
▁Highest 1188
▁Changed 1189
▁mic 1190
▁only 1191
Look 1192
▁Cra 1193
anos 1194
▁can 1195
▁school 1196
.[30 1197
▁se 1198
though 1199
ship 1200
▁Lee 1201
▁use 1202
etting 1203
▁ticket 1204
▁thir 1205
round 1206
▁Miss 1207
▁Rand 1208
▁Bla 1209
ford 1210
▁directors 1211
▁Jim 1212
▁follow 1213
1) 1214
▁supported 1215
lly 1216
▁Laur 1217
wis 1218
.[45 1219
ssa 1220
.[38 1221
▁Bill 1222
ality 1223
77] 1224
pt 1225
▁Alan 1226
▁Cultur 1227
▁50 1228
▁donat 1229
▁Act 1230
ana 1231
uf 1232
▁touring 1233
.[42 1234
▁end 1235
up 1236
ison 1237
▁promot 1238
off 1239
▁Studi 1240
ying 1241
▁Donate 1242
14] 1243
▁he 1244
▁man 1245
80 1246
▁By 1247
alentine 1248
▁4 1249
▁wor 1250
Mar 1251
wn 1252
▁Matt 1253
Cru 1254
ad 1255
▁con 1256
▁suc 1257
ster 1258
cy 1259
▁Jos 1260
play 1261
▁6 1262
▁un 1263
im 1264
▁Dis 1265
▁Ch 1266
talking 1267
▁get 1268
▁2012, 1269
.[15 1270
.[62 1271
▁Cal 1272
id 1273
▁Lo 1274
pper 1275
.[49 1276
ine 1277
less 1278
Earn 1279
71] 1280
CA 1281
50] 1282
ew 1283
nburg 1284
ashing 1285
50 1286
Guitar 1287
aman 1288
56] 1289
avor 1290
▁2017, 1291
▁Bel 1292
23] 1293
dependent 1294
ynth 1295
▁us 1296
,[53 1297
88] 1298
▁spect 1299
Co 1300
▁persona 1301
dig 1302
list 1303
▁Gree 1304
night 1305
oper 1306
".[2 1307
▁raise 1308
.[13 1309
▁r 1310
▁ann 1311
▁rol 1312
▁Br 1313
▁include 1314
▁Du 1315
Blan 1316
▁Mor 1317
▁direct 1318
Fearless 1319
Midnights 1320
had 1321
▁Kell 1322
We 1323
Best 1324
18 1325
79] 1326
0). 1327
▁call 1328
ill 1329
K 1330
▁Set 1331
57] 1332
▁late 1333
wo 1334
▁ca 1335
Me 1336
ges 1337
star 1338
,[3 1339
75] 1340
42] 1341
land 1342
▁comm 1343
▁production 1344
▁Gen 1345
▁Winner 1346
▁Holl 1347
▁Single 1348
▁set 1349
sell 1350
▁sub 1351
▁Home 1352
▁feat 1353
▁El 1354
▁(2018) 1355
.[18 1356
▁Ke 1357
▁becom 1358
ssault 1359
3][5 1360
CM 1361
tial 1362
▁Sign 1363
rn 1364
credi 1365
RIA 1366
▁Ever 1367
▁power 1368
▁develop 1369
▁recogni 1370
▁Consequence 1371
▁Department 1372
▁Hendersonville 1373
▁Madonna 1374
▁Melissa 1375
▁Mitchell 1376
▁Provenzano 1377
▁Support 1378
▁University 1379
▁Worldwide 1380
▁Wyomissing 1381
▁dispute 1382
▁efforts 1383
▁incorporate 1384
▁previous 1385
▁register 1386
▁replace 1387
▁worldwide 1388
▁Twitter 1389
▁purchase 1390
▁recipient 1391
▁scrutin 1392
▁Finlay 1393
▁family 1394
opolit 1395
▁before 1396
▁Source 1397
▁Houston 1398
▁twice 1399
▁Sloan 1400
▁service 1401
▁Zealand 1402
▁Antonoff 1403
▁scene 1404
▁travel 1405
▁Think 1406
▁Space 1407
Willow 1408
▁Strait 1409
▁Trouble 1410
▁remain 1411
31] 1412
▁Receive 1413
▁next 1414
▁issue 1415
▁place 1416
▁Three 1417
▁Talk 1418
▁publications 1419
▁literary 1420
▁Silv 1421
▁root 1422
▁turn 1423
▁Career 1424
▁Haze 1425
▁Return 1426
96] 1427
Mine 1428
▁Voice 1429
▁Standard 1430
▁Louis 1431
▁opin 1432
Hero 1433
▁Box 1434
▁movement 1435
▁Grow 1436
▁Canada 1437
Radio 1438
▁Fire 1439
▁Score 1440
▁Sound 1441
▁yet 1442
-19 1443
▁favor 1444
▁(2023) 1445
ueen 1446
▁victims 1447
▁post 1448
37] 1449
▁actresses 1450
▁Does 1451
▁Fund 1452
nior 1453
▁leg 1454
▁Wall 1455
▁Even 1456
▁Mc 1457
▁need 1458
▁sin 1459
ark 1460
▁wide 1461
▁Fair 1462
Spark 1463
▁title 1464
▁artistry 1465
▁Ranked 1466
ographic 1467
95] 1468
▁nominat 1469
▁Greg 1470
▁dub 1471
▁masters 1472
▁rights 1473
.[48 1474
▁LGBT 1475
▁Again 1476
▁Better 1477
▁themes 1478
▁(2012) 1479
.[61 1480
▁Sh 1481
,[61 1482
▁inter 1483
▁hip 1484
▁Rap 1485
▁Ready 1486
ogue 1487
ashi 1488
▁ent 1489
▁Row 1490
▁Lib 1491
[297] 1492
▁changed 1493
▁Want 1494
▁Thank 1495
teen 1496
if 1497
▁signing 1498
itch 1499
▁Nat 1500
Pai 1501
▁Chi 1502
▁celebrit 1503
▁Singles 1504
98] 1505
▁Dr 1506
▁Writ 1507
gita 1508
▁Four 1509
▁Joy 1510
▁CD 1511
▁Pri 1512
▁Air 1513
▁Become 1514
acoustic 1515
▁earning 1516
▁McC 1517
▁Lizz 1518
6 1519
▁Ticket 1520
,[2 1521
os 1522
▁line 1523
▁Kor 1524
▁Bon 1525
▁back 1526
▁weeks 1527
▁Call 1528
▁run 1529
Max 1530
Is 1531
66] 1532
▁Sna 1533
▁Stand 1534
berg 1535
Cats 1536
nia 1537
Swift 1538
.[35 1539
▁Bo 1540
,[25 1541
▁public 1542
.[8 1543
ncer 1544
▁Mon 1545
▁seve 1546
▁tell 1547
▁Go 1548
.[57 1549
ook 1550
▁cons 1551
outle 1552
nti 1553
ough 1554
▁Report 1555
▁Reviews 1556
▁Ir 1557
▁Lyn 1558
mb 1559
▁them 1560
84] 1561
ize 1562
),[43 1563
1. 1564
ker 1565
▁Ver 1566
▁date 1567
▁Rol 1568
▁videos 1569
.[60 1570
ning 1571
ations 1572
▁came 1573
appeared 1574
▁Kel 1575
go 1576
ess 1577
34] 1578
ep 1579
▁Ac 1580
▁$25 1581
▁Wor 1582
▁Va 1583
▁Wid 1584
aster 1585
99] 1586
ler 1587
ties 1588
.[24 1589
sh 1590
ose 1591
res 1592
ses 1593
25] 1594
[51 1595
▁young 1596
▁com 1597
06] 1598
ense 1599
uff 1600
62] 1601
22 1602
▁records 1603
ody 1604
82] 1605
0][4 1606
000 1607
[4 1608
▁commen 1609
veral 1610
ame 1611
Free 1612
hut 1613
▁Public 1614
▁Er 1615
adi 1616
▁Tor 1617
▁Den 1618
avis 1619
ft 1620
illa 1621
ompany 1622
hn 1623
5][5 1624
king 1625
▁Bu 1626
lo 1627
▁Jod 1628
▁my 1629
wa 1630
,[56 1631
tt 1632
each 1633
90] 1634
▁sta 1635
." 1636
▁prais 1637
.[22 1638
4. 1639
70] 1640
ext 1641
07] 1642
[3 1643
08] 1644
ward 1645
53] 1646
▁Y 1647
▁Col 1648
ok 1649
den 1650
.[14 1651
own 1652
recording 1653
30] 1654
rd 1655
▁"' 1656
83] 1657
▁Phil 1658
▁Fu 1659
base 1660
21] 1661
metime 1662
terna 1663
ag 1664
78] 1665
Y 1666
.[20 1667
▁Gard 1668
ol 1669
▁Foo 1670
74] 1671
ella 1672
▁Flo 1673
porter 1674
Stream 1675
mer 1676
rity 1677
▁2013, 1678
ocal 1679
▁Ste 1680
86] 1681
▁Stream 1682
ral 1683
co 1684
ua 1685
28] 1686
▁Su 1687
▁whe 1688
▁car 1689
Songwriter 1690
Shake 1691
critical 1692
▁start 1693
present 1694
.[21 1695
Album 1696
U 1697
▁there 1698
Famous 1699
Grammy 1700
ence 1701
▁Was 1702
bon 1703
Tim 1704
per 1705
Top 1706
ul 1707
.[59 1708
includ 1709
Hal 1710
key 1711
back 1712
media 1713
ori 1714
Big 1715
work 1716
zed 1717
Kan 1718
▁Ly 1719
also 1720
▁Lu 1721
timate 1722
▁Journ 1723
[2 1724
12 1725
Re 1726
,[58 1727
identifie 1728
92] 1729
ancer 1730
nis 1731
ells 1732
▁(2014) 1733
▁br 1734
▁Za 1735
▁Entertainer 1736
nder 1737
▁(2021) 1738
48] 1739
▁Steven 1740
▁performance 1741
▁AMA 1742
▁flood 1743
▁emotion 1744
46] 1745
eak 1746
So 1747
And 1748
red 1749
▁producer 1750
lvin 1751
nger 1752
My 1753
yn 1754
24] 1755
▁shar 1756
▁Publish 1757
▁Hit 1758
▁8 1759
▁ba 1760
▁25 1761
▁mode 1762
mark 1763
▁tornado 1764
▁influen 1765
[60 1766
▁(2010 1767
la 1768
mpact 1769
▁Associat 1770
ecutive 1771
grandmother 1772
mbassador 1773
taylorswift 1774
▁Borchetta 1775
▁Catucci 1776
▁Children 1777
▁Dessner 1778
▁GRAMMY 1779
▁Historic 1780
▁IFPI 1781
▁Lorax 1782
▁Luminate 1783
▁Millennial 1784
▁Nominees 1785
▁Songwriting 1786
▁Surpris 1787
▁appreciat 1788
▁electropop 1789
▁extensively 1790
▁fundraiser 1791
▁magazine 1792
▁platforms 1793
▁practice 1794
▁simultaneous 1795
▁transferr 1796
▁ukulele 1797
▁vulnerable 1798
pokesperson 1799
▁Explain 1800
▁nominees 1801
▁transition 1802
RAINN 1803
▁GLAAD 1804
▁Symphony 1805
▁introduc 1806
▁pianists 1807
▁return 1808
NSAI 1809
▁Ireland 1810
▁audience 1811
▁identity 1812
▁politic 1813
▁presence 1814
▁source 1815
▁Dylan 1816
▁acclaim 1817
▁(2015) 1818
▁TIME 1819
▁Paisley 1820
▁eleven 1821
▁period 1822
Tweet 1823
▁Twain 1824
▁elements 1825
▁explained 1826
▁Perry 1827
▁polic 1828
▁heart 1829
▁contract 1830
▁respectively 1831
▁Launch 1832
▁Sasha 1833
▁Stereo 1834
▁frequent 1835
▁sessions 1836
▁Olivi 1837
▁Chicks 1838
▁endorse 1839
▁occup 1840
▁Braun 1841
▁Beatles 1842
▁Number 1843
▁Kaplan 1844
▁NYC 1845
ticism 1846
▁Adrian 1847
▁Grande 1848
▁maintain 1849
▁Martin 1850
▁Angry 1851
▁contemporaries 1852
▁campaign 1853
▁detail 1854
▁shoot 1855
▁partner 1856
▁draw 1857
▁Lansky 1858
▁Horton 1859
▁Weather 1860
▁Direction 1861
▁agree 1862
▁Crime 1863
▁Popular 1864
▁Egg 1865
▁Urge 1866
▁appearance 1867
▁refer 1868
▁reform 1869
▁Turn 1870
▁Nancy 1871
▁criticism 1872
ATV 1873
▁Future 1874
▁Brown 1875
▁Jeff 1876
▁Wealth 1877
▁deem 1878
▁spot 1879
▁Letter 1880
▁longest 1881
▁German 1882
▁Harvey 1883
▁units 1884
ophie 1885
▁still 1886
oice 1887
▁superstar 1888
▁dress 1889
▁powerful 1890
▁involve 1891
▁Paine 1892
▁Onstage 1893
▁icon 1894
▁Jackson 1895
CL 1896
▁Indie 1897
▁References 1898
quent 1899
▁narrative 1900
▁Hughes 1901
▁businesses 1902
▁Port 1903
▁join 1904
▁rise 1905
▁Wallen 1906
▁Night 1907
▁Feature 1908
▁surprise 1909
▁positive 1910
▁Money 1911
[44 1912
▁overall 1913
▁now 1914
▁States 1915
▁Carol 1916
▁offer 1917
▁Donation 1918
▁Deser 1919
▁Collin 1920
▁enter 1921
▁Road 1922
▁Under 1923
);[46 1924
▁Reveal 1925
▁Search 1926
▁Rock 1927
avage 1928
▁Harv 1929
pedia 1930
ography 1931
6][1 1932
▁Island 1933
▁2006. 1934
▁believe 1935
▁Giver 1936
onym 1937
▁Fall 1938
Hour 1939
pai 1940
▁Law 1941
▁link 1942
▁accounts 1943
▁Dreams 1944
▁Month 1945
▁instruments 1946
▁Track 1947
▁serv 1948
▁books 1949
▁Games 1950
▁same 1951
peech 1952
▁eight 1953
▁ABC 1954
69] 1955
▁Artistry 1956
▁(2009 1957
▁sens 1958
▁accolades 1959
;[5 1960
▁assault 1961
ring 1962
▁does 1963
▁versatil 1964
▁extend 1965
▁Page 1966
▁Pictures 1967
▁bi 1968
uti 1969
▁Spe 1970
▁met 1971
▁Christian 1972
▁love 1973
."[4 1974
Frere 1975
▁View 1976
▁month 1977
▁79 1978
Something 1979
hour 1980
93] 1981
▁upb 1982
range 1983
▁hop 1984
▁culture 1985
▁meet 1986
alian 1987
▁today 1988
▁listen 1989
▁concern 1990
▁fame 1991
▁down 1992
MG 1993
▁Steve 1994
▁Gaz 1995
▁Fa 1996
▁dance 1997
▁Blue 1998
▁dominat 1999
▁ran 2000
agu 2001
aught 2002
enius 2003
▁Stu 2004
▁Pin 2005
45] 2006
▁liv 2007
▁Net 2008
vin 2009
▁Las 2010
▁Brun 2011
▁Style 2012
ni 2013
71 2014
▁Phon 2015
▁pen 2016
[310] 2017
▁class 2018
▁control 2019
▁Kid 2020
▁topp 2021
▁Lead 2022
illian 2023
▁Kyl 2024
▁break 2025
▁AMAs 2026
oo 2027
▁house 2028
▁(2013) 2029
▁great 2030
▁teenage 2031
kind 2032
unti 2033
▁genres 2034
8][2 2035
.[55 2036
▁fel 2037
▁directed 2038
jo 2039
vers 2040
bridge 2041
ty 2042
Scoo 2043
05] 2044
ric 2045
Ed 2046
03] 2047
.[12 2048
▁tracks 2049
▁Federa 2050
▁Fift 2051
ha 2052
▁Min 2053
ears 2054
▁Don 2055
▁Young 2056
vid 2057
tributed 2058
Jones 2059
yers 2060
-8. 2061
▁labels 2062
▁cit 2063
72] 2064
87] 2065
ap 2066
▁Poe 2067
▁Brad 2068
ette 2069
▁(10 2070
Share 2071
ever 2072
▁influences 2073
▁Days 2074
▁ro 2075
▁Thing 2076
▁Pat 2077
▁teen 2078
▁Celebr 2079
▁Priva 2080
▁performer 2081
app 2082
▁put 2083
▁$50 2084
lenn 2085
▁send 2086
▁Fin 2087
ach 2088
▁En 2089
66 2090
▁Char 2091
sp 2092
▁Whi 2093
Fem 2094
organ 2095
▁band 2096
ecision 2097
tional 2098
dy 2099
ot 2100
ult 2101
ko 2102
jor 2103
00 2104
▁AI 2105
▁charit 2106
ical 2107
elcome 2108
atter 2109
Eyes 2110
▁Lab 2111
cumulat 2112
13 2113
oid 2114
▁del 2115
▁They 2116
44] 2117
▁manage 2118
▁Cur 2119
estim 2120
▁Direct 2121
▁Stars 2122
▁benef 2123
▁Mik 2124
68] 2125
▁Ep 2126
BC 2127
arents 2128
▁self 2129
".[54 2130
squ 2131
▁sav 2132
▁roman 2133
Th 2134
▁fan 2135
43 2136
▁Lega 2137
▁Christma 2138
.[51 2139
iley 2140
ank 2141
".[5 2142
22] 2143
Here 2144
▁Way 2145
▁(2021). 2146
▁propert 2147
▁Watch 2148
10] 2149
ism 2150
▁communit 2151
▁Won 2152
13] 2153
sts 2154
▁Gra 2155
ndependent 2156
eber 2157
▁Te 2158
nu 2159
enue 2160
liste 2161
▁cour 2162
elve 2163
ombe 2164
▁syn 2165
80] 2166
llen 2167
Brand 2168
▁2022.[5 2169
02] 2170
▁Hy 2171
▁Phill 2172
ac 2173
▁199 2174
xie 2175
sm 2176
gu 2177
▁Start 2178
asc 2179
▁App 2180
▁Bru 2181
▁stat 2182
▁Mer 2183
▁esta 2184
nsider 2185
▁Tri 2186
thing 2187
ures 2188
▁exp 2189
ents 2190
0][3 2191
dence 2192
.[12][ 2193
▁Green 2194
dia 2195
▁Har 2196
",[5 2197
,[28 2198
ze 2199
19] 2200
64] 2201
2][3 2202
20] 2203
uck 2204
▁e 2205
▁bu 2206
nk 2207
▁Ga 2208
ked 2209
.[50 2210
32] 2211
afe 2212
▁ac 2213
isual 2214
ything 2215
81] 2216
ile 2217
.[10 2218
use 2219
▁high 2220
▁l 2221
▁Fre 2222
▁Fi 2223
▁Luc 2224
▁Whit 2225
▁du 2226
6][3 2227
02 2228
achievement 2229
lling 2230
ologi 2231
tain 2232
.[47 2233
▁Beh 2234
76 2235
85] 2236
... 2237
dom 2238
▁toppe 2239
1][4 2240
▁Inv 2241
▁bla 2242
rms 2243
j 2244
dam 2245
over 2246
nally 2247
▁He 2248
he 2249
mi 2250
site 2251
llow 2252
eras 2253
▁comple 2254
▁add 2255
olin 2256
11] 2257
▁Nor 2258
ded 2259
notes 2260
sole 2261
,[41 2262
61] 2263
▁state 2264
▁achieve 2265
amon 2266
.[36 2267
▁gener 2268
rap 2269
ree 2270
▁en 2271
mit 2272
▁mo 2273
tter 2274
▁202 2275
ob 2276
Singer 2277
arass 2278
▁multi 2279
Conn 2280
▁2005 2281
09] 2282
ner 2283
enstein 2284
60] 2285
ab 2286
▁Kim 2287
85 2288
▁100.[2 2289
.[46 2290
erg 2291
ious 2292
kin 2293
ays 2294
18] 2295
mon 2296
oth 2297
tic 2298
▁Comple 2299
▁then 2300
bil 2301
▁acc 2302
test 2303
ights 2304
hian 2305
▁Or 2306
Se 2307
.[27 2308
hug 2309
rest 2310
owa 2311
26] 2312
sen 2313
2. 2314
Ever 2315
97 2316
▁Eri 2317
[41 2318
De 2319
▁Pre 2320
▁Sex 2321
▁Cou 2322
▁Ele 2323
MA 2324
▁Cre 2325
.[57] 2326
▁Je 2327
rth 2328
5][4 2329
nts 2330
23 2331
nha 2332
ils 2333
act 2334
ama 2335
ure 2336
em 2337
70 2338
2][2 2339
▁CB 2340
▁Dail 2341
ell 2342
.[23 2343
25,000 2344
oman 2345
ndle 2346
bles 2347
ssion 2348
sette 2349
ips 2350
ned 2351
▁Ven 2352
ically 2353
.[34 2354
Music 2355
▁comp 2356
ends 2357
cker 2358
▁sex 2359
han 2360
▁Roman 2361
7][5 2362
87 2363
rns 2364
ger 2365
▁2021) 2366
51] 2367
wareness 2368
sky 2369
▁Pen 2370
ardro 2371
J 2372
ug 2373
▁melodi 2374
[257] 2375
No 2376
3. 2377
▁CM 2378
▁fi 2379
[38 2380
book 2381
section 2382
3][2 2383
clo 2384
Wil 2385
ky 2386
ka 2387
Video 2388
▁Lea 2389
)" 2390
1][2 2391
Chart 2392
▁$7 2393
▁Bea 2394
▁Moni 2395
Now 2396
ich 2397
76] 2398
Great 2399
MTV 2400
most 2401
Folklore 2402
First 2403
Review 2404
master 2405
teenage 2406
great 2407
Bea 2408
White 2409
pul 2410
isa 2411
Miss 2412
High 2413
Most 2414
house 2415
Golden 2416
week 2417
Break 2418
follow 2419
zzo 2420
CD 2421
side 2422
mar 2423
pent 2424
Day 2425
Star 2426
[48 2427
break 2428
under 2429
Of 2430
8][3 2431
featur 2432
Film 2433
rida 2434
▁Pro 2435
On 2436
.[54 2437
lec 2438
elle 2439
▁techni 2440
12) 2441
elody 2442
ugg 2443
Sony 2444
▁Eye 2445
▁philanthropists 2446
▁mu 2447
▁produce 2448
eration 2449
▁billionaire 2450
ured 2451
school 2452
ject 2453
Bill 2454
▁Pho 2455
atur 2456
Writ 2457
ste 2458
ny 2459
▁indi 2460
Songwriters 2461
earning 2462
▁journalist 2463
▁Girl 2464
Gas 2465
▁Robert 2466
▁trans 2467
onomic 2468
▁VMA 2469
▁defi 2470
▁Era 2471
ba 2472
▁1.2 2473
▁event 2474
sub 2475
▁chang 2476
17 2477
une 2478
Begin 2479
whi 2480
It 2481
▁imp 2482
[23 2483
found 2484
▁feel 2485
▁right 2486
▁Tours 2487
Lil 2488
ccolades 2489
ctresses 2490
lternative 2491
scap 2492
dic 2493
au 2494
43] 2495
▁Georg 2496
.[58 2497
17] 2498
,[43 2499
▁Op 2500
▁sit 2501
▁Gam 2502
egas 2503
invention 2504
▁business 2505
NBC 2506
▁Gross 2507
▁Hugh 2508
▁actress 2509
chart 2510
ram 2511
Inside 2512
▁978-1- 2513
[5 2514
fessional 2515
▁timbre 2516
Carolina 2517
Karma 2518
▁depart 2519
▁experiment 2520
▁retrospective 2521
.[173][174] 2522
07494467.2021.19 2523
Delicate 2524
Dymtrow 2525
NZ 2526
Sugarland 2527
bsolutely 2528
diaristic 2529
randfather 2530
tremendous 2531
volutionary 2532
▁$345 2533
▁(2006) 2534
▁(2023–2024) 2535
▁978-0-19- 2536
▁Billionaire 2537
▁Capital 2538
▁Cinema 2539
▁Collection 2540
▁Conversation 2541
▁Education 2542
▁Elizabeth 2543
▁Fischer 2544
▁Fogarty 2545
▁Gabriel 2546
▁Jagger 2547
▁Jepson 2548
▁Masterpiece 2549
▁McGrath 2550
▁McKenna 2551
▁Melinda 2552
▁Mueller 2553
▁Murphy 2554
▁Organization 2555
▁Perfect 2556
▁Petrusich 2557
▁Pickler 2558
▁Removal 2559
▁Schuster 2560
▁Scotland 2561
▁YouTube 2562
▁accommodate 2563
▁conversation 2564
▁degree 2565
▁engagement 2566
▁experience 2567
▁expressive 2568
▁monopol 2569
▁paradigm 2570
▁president 2571
▁scholar 2572
▁showcase 2573
▁trademark 2574
▁treatment 2575
▁Apartment 2576
▁Catalog 2577
▁Discuss 2578
▁Shellback 2579
▁Soundtrack 2580
▁Triumph 2581
▁gossip 2582
▁interrupt 2583
Exclusive 2584
Portrait 2585
eremony 2586
ffects 2587
hronicle 2588
olunteer 2589
▁2004– 2590
▁Bridgers 2591
▁CNN 2592
▁Chapman 2593
▁Chiefs 2594
▁DVD 2595
▁Eilish 2596
▁Hiddleston 2597
▁Hospital 2598
▁Little 2599
▁MusiCares 2600
▁Politic 2601
▁aspect 2602
▁category 2603
▁organization 2604
▁pivoting 2605
▁refrain 2606
soprano 2607
▁Author 2608
▁Burgham 2609
▁Ghosts 2610
▁Oscar 2611
▁Seidman 2612
▁William 2613
▁employ 2614
▁perspective 2615
.[209][21 2616
.[593][62 2617
articipa 2618
osphere 2619
▁EDM 2620
▁Experience 2621
▁Nicol 2622
▁confiden 2623
▁storytelling 2624
▁phenom 2625
Cruise 2626
▁Service 2627
▁movie 2628
▁remov 2629
▁skilled 2630
▁Brother 2631
ategories 2632
▁piano 2633
▁iTunes 2634
Ronan 2635
▁poptimis 2636
▁(2016) 2637
▁Interacti 2638
▁advocate 2639
▁offset 2640
ragrance 2641
▁prepar 2642
▁Perone 2643
generat 2644
▁Split 2645
▁Critique 2646
▁Commons 2647
▁Stubb 2648
▁discuss 2649
brother 2650
▁Arnold 2651
▁curate 2652
▁interview 2653
▁disclos 2654
▁(2008) 2655
▁earlie 2656
▁addition 2657
▁Fulford 2658
▁monument 2659
▁Club 2660
▁feminist 2661
Boyfriend 2662
folklore 2663
▁point 2664
ncourage 2665
▁Schola 2666
▁peers 2667
▁indicat 2668
▁Generation 2669
▁idol 2670
▁demographic 2671
▁44- 2672
▁Claire 2673
▁genuine 2674
▁girl 2675
▁decade 2676
▁character 2677
▁ventur 2678
Nominations 2679
▁Spinoff 2680
▁conquer 2681
▁lower 2682
▁children 2683
▁Doyle 2684
▁exact 2685
▁Predators 2686
▁nuance 2687
▁Ellis 2688
▁clear 2689
▁beginning 2690
▁Tribute 2691
▁Weiss 2692
;[25 2693
▁Small 2694
▁Webber 2695
▁Management 2696
▁letter 2697
▁Scene 2698
▁Commercial 2699
▁egg 2700
▁importan 2701
▁Couple 2702
▁regard 2703
▁Dominate 2704
ucce 2705
▁Economi 2706
▁filmmak 2707
▁urg 2708
▁Clash 2709
hibit 2710
precede 2711
▁Excellence 2712
CSI 2713
▁Broad 2714
minis 2715
▁Barna 2716
▁host 2717
▁recepti 2718
▁McK 2719
▁businesswoman 2720
▁Bridges 2721
protect 2722
▁Harbor 2723
▁Church 2724
▁Intern 2725
▁BMI 2726
▁Block 2727
▁978-1-4 2728
▁responded 2729
▁Mojo 2730
▁Trump 2731
),[234] 2732
▁Tanne 2733
▁Confi 2734
▁version 2735
▁Research 2736
▁large 2737
▁education 2738
▁95 2739
Tune 2740
▁Electronic 2741
honest 2742
Scoop 2743
▁Slate 2744
estival 2745
▁visual 2746
▁premiere 2747
▁Brooks 2748
Prod 2749
▁Hamm 2750
▁Pink 2751
rincess 2752
▁shift 2753
▁pursu 2754
▁Data 2755
▁provide 2756
▁domination 2757
▁welcome 2758
▁Serpe 2759
▁Chlo 2760
▁speculat 2761
▁McD 2762
.[517][3 2763
▁Influence 2764
▁spotlight 2765
▁Place 2766
.[418] 2767
▁Know 2768
urvivors 2769
▁2019,[44 2770
▁represent 2771
▁imm 2772
▁Present 2773
▁Cafe 2774
▁Barb 2775
▁South 2776
▁Earth 2777
▁Weekend 2778
uestion 2779
▁Count 2780
▁Genero 2781
▁company 2782
▁Burn 2783
▁foot 2784
▁Close 2785
▁deep 2786
2011),[11 2787
▁2022.[245] 2788
▁Peas 2789
ME 2790
▁reveal 2791
▁shop 2792
",[33 2793
▁Sweetheart 2794
special 2795
roblem 2796
▁ancest 2797
▁Initia 2798
▁Grosses 2799
▁nine 2800
▁2016.[17 2801
▁fund 2802
▁level 2803
Smash 2804
▁election 2805
▁Court 2806
▁Feud 2807
▁words 2808
▁AllMusic 2809
▁income 2810
."[1 2811
3][4 2812
6][6 2813
▁Jem 2814
Baldi 2815
econd 2816
stock 2817
▁House 2818
▁Guide 2819
space 2820
▁dark 2821
▁Fans 2822
RIAA 2823
▁Sweep 2824
▁auditorium 2825
ermo 2826
▁(2014).[1 2827
▁Deadline 2828
lectronic 2829
▁tornadoes 2830
▁Remix 2831
echnolog 2832
▁economy 2833
2][1 2834
▁Della 2835
▁Senat 2836
▁successful 2837
▁abandon 2838
ouble 2839
▁Zachar 2840
▁portray 2841
▁Reuni 2842
▁Picture 2843
▁mature 2844
▁Timeline 2845
▁Sund 2846
.2022.2 2847
▁Reinvention 2848
zza 2849
oliday 2850
[358] 2851
▁Tapp 2852
Pain 2853
score 2854
▁Round 2855
▁colle 2856
▁connect 2857
iamond 2858
▁Tap 2859
▁Studies 2860
▁2023.[27 2861
kes 2862
▁accompanie 2863
▁cla 2864
ories 2865
cz 2866
▁grand 2867
Focus 2868
4][2 2869
▁Jonas 2870
1][1 2871
[72] 2872
▁refuse 2873
▁Bate 2874
▁claim 2875
▁Some 2876
▁Rank 2877
ontinue 2878
▁Vital 2879
mix 2880
▁Vo 2881
▁Spin 2882
▁alternative 2883
▁Adam 2884
rican 2885
▁vote 2886
escap 2887
4][4 2888
ocus 2889
▁dem 2890
ignature 2891
mpa 2892
▁Rollout 2893
surge 2894
▁Play 2895
▁plan 2896
▁Labels 2897
▁2024.[4 2898
▁2008–20 2899
▁Darke 2900
▁memor 2901
▁globally 2902
▁Fried 2903
.[245] 2904
▁Linke 2905
▁str 2906
▁MSN 2907
▁Shut 2908
ibi 2909
▁Zol 2910
▁clima 2911
▁feeling 2912
FF 2913
ather 2914
.0: 2915
bitch 2916
▁donation 2917
eddings 2918
Pride 2919
▁(2011 2920
▁Ob 2921
▁Cut 2922
▁Jude 2923
2][5 2924
▁Wood 2925
▁theater 2926
ario 2927
▁Mich 2928
▁Brent 2929
files 2930
▁Vote 2931
shape 2932
,[37 2933
529 2934
▁hard 2935
▁edit 2936
8][4 2937
▁2015.[4 2938
▁Mont 2939
▁phone 2940
types 2941
248 2942
▁Mac 2943
".[40 2944
▁defin 2945
ancy 2946
67] 2947
▁Ice 2948
▁78 2949
▁vision 2950
attle 2951
haming 2952
NJ 2953
▁pay 2954
▁2020.[2 2955
▁transform 2956
cadem 2957
national 2958
rossover 2959
▁Appea 2960
ination 2961
ince 2962
▁Canad 2963
▁Girls 2964
▁events 2965
▁journalists 2966
3][12] 2967
▁Roberts 2968
UT 2969
tabl 2970
▁birth 2971
qua 2972
song 2973
▁Maria 2974
▁Feminis 2975
▁twang 2976
▁intimacy 2977
iting 2978
▁pandemic 2979
gen 2980
▁professional 2981
▁250 2982
no 2983
▁InStyle 2984
▁Creat 2985
▁intens 2986
—" 2987
▁Liz 2988
rt 2989
▁sister 2990
20 2991
▁even 2992
▁populariz 2993
▁stay 2994
▁ago 2995
ect 2996
Int 2997
▁Bart 2998
nica 2999
▁int 3000
▁Tone 3001
▁accu 3002
approv 3003
dream 3004
▁Polic 3005
▁Beat 3006
cting 3007
▁Pe 3008
▁vib 3009
,[33] 3010
▁move 3011
Brit 3012
igi 3013
▁billionaires 3014
uction 3015
isin 3016
imagine 3017
▁Wyn 3018
lack 3019
▁Say 3020
▁num 3021
."[2 3022
▁find 3023
▁Kris 3024
▁Jen 3025
▁term 3026
▁Entertainers 3027
▁Stevens 3028
▁floods 3029
▁Neal 3030
▁$750,000 3031
▁2008.[ 3032
▁2000 3033
▁64 3034
▁master 3035
▁Head 3036
aker 3037
97] 3038
▁Au 3039
▁Date 3040
lik 3041
▁electr 3042
▁Hits 3043
▁speak 3044
▁Patti 3045
anie 3046
▁Bigger 3047
rks 3048
▁Cast 3049
cool 3050
vention 3051
suit 3052
▁sa 3053
belli 3054
▁Boy 3055
▁Resp 3056
les 3057
ealth 3058
▁Stun 3059
graphy 3060
.[292] 3061
▁identif 3062
▁Sc 3063
di 3064
▁arts 3065
▁productions 3066
▁Homes 3067
Beyonce 3068
enefit 3069
▁Ger 3070
▁Acts 3071
),[4 3072
▁Sale 3073
tley 3074
loy 3075
▁Mi 3076
58][5 3077
zzl 3078
dge 3079
▁found 3080
Sh 3081
▁cli 3082
▁Bern 3083
ith 3084
apes 3085
bo 3086
Ye 3087
Romantic 3088
▁tool 3089
40] 3090
4- 3091
ccomplish 3092
urth 3093
push 3094
▁lack 3095
▁Pass 3096
avai 3097
ooks 3098
essa 3099
62 3100
.[11 3101
▁action 3102
▁Soci 3103
▁produc 3104
elect 3105
▁study 3106
▁admi 3107
▁Mick 3108
pl 3109
▁Can 3110
33] 3111
▁station 3112
▁Maris 3113
oehle 3114
▁Charit 3115
▁3- 3116
▁attribute 3117
▁activ 3118
ained 3119
affer 3120
eitgeist 3121
▁app 3122
oma 3123
lia 3124
ets 3125
▁Change 3126
oney 3127
Ours 3128
▁Pla 3129
rama 3130
▁Ki 3131
ebe 3132
▁cre 3133
▁dis 3134
▁Peters 3135
tale 3136
awareness 3137
aga 3138
▁thin 3139
Blend 3140
".[1 3141
▁Pra 3142
▁Franc 3143
–2014 3144
▁Carl 3145
▁contro 3146
61 3147
▁Cop 3148
▁writer 3149
▁tw 3150
▁covers 3151
ee 3152
am 3153
nsus 3154
tality 3155
ec 3156
ub 3157
ode 3158
ute 3159
non 3160
▁thank 3161
ontrol 3162
[37 3163
▁Ex 3164
▁Fight 3165
ogg 3166
▁Famous 3167
ative 3168
▁fur 3169
globe 3170
mpl 3171
▁embr 3172
▁compa 3173
▁His 3174
▁Bun 3175
ki 3176
▁Mayer 3177
NE 3178
6. 3179
ular 3180
iterature 3181
▁arm 3182
MD 3183
▁present 3184
▁15- 3185
ntrepreneurship 3186
▁Kn 3187
Works 3188
ontemporar 3189
federa 3190
;[40 3191
onica 3192
EP 3193
evastati 3194
iqu 3195
Vill 3196
ugu 3197
▁dist 3198
▁Bre 3199
▁fuel 3200
▁Jak 3201
▁mut 3202
▁Lin 3203
▁che 3204
▁1.28 3205
▁card 3206
hreaten 3207
ox 3208
gli 3209
▁Ab 3210
ms 3211
gun 3212
36] 3213
tamina 3214
ream 3215
▁Inn 3216
wear 3217
gi 3218
un 3219
ld 3220
qui 3221
▁Take 3222
eat 3223
▁melod 3224
94] 3225
▁inf 3226
▁Spi 3227
navi 3228
RI 3229
reign 3230
[222] 3231
4][3 3232
6][5 3233
▁Shake 3234
▁pa 3235
mick 3236
▁Elia 3237
rogram 3238
cific 3239
[15 3240
▁$500,000 3241
kept 3242
▁proce 3243
▁st 3244
itiz 3245
erson 3246
stein 3247
Celebrit 3248
anda 3249
4). 3250
▁emb 3251
▁conce 3252
.[33 3253
raz 3254
tation 3255
▁Spea 3256
astic 3257
imit 3258
▁Pres 3259
.[351] 3260
▁sexis 3261
ett 3262
▁big 3263
▁Ross 3264
emi 3265
▁sh 3266
▁Give 3267
▁others 3268
ang 3269
▁2019, 3270
ah 3271
▁Wal 3272
4][33 3273
▁Sus 3274
lin 3275
eague 3276
▁pu 3277
▁per 3278
01] 3279
lut 3280
rec 3281
Exte 3282
astermind 3283
▁Zh 3284
".[31 3285
ma 3286
▁Let 3287
04] 3288
12] 3289
.[363] 3290
▁trip 3291
hew 3292
▁9 3293
▁rais 3294
des 3295
[264] 3296
▁Dre 3297
▁launch 3298
ti 3299
▁Com 3300
▁intell 3301
07 3302
uses 3303
▁la 3304
▁159 3305
▁sw 3306
▁Lam 3307
pre 3308
nounce 3309
7][ 3310
du 3311
92. 3312
ampa 3313
.[52 3314
▁films 3315
77 3316
rig 3317
▁Class 3318
▁Love 3319
▁Cour 3320
▁Pac 3321
156 3322
▁clo 3323
lio 3324
▁Para 3325
▁$6 3326
▁pos 3327
▁Bal 3328
▁Eas 3329
▁stop 3330
35] 3331
ired 3332
cate 3333
▁Mat 3334
esses 3335
▁(2020). 3336
tur 3337
ds 3338
she 3339
▁century 3340
▁War 3341
mmy 3342
▁Bor 3343
nese 3344
wit 3345
▁cont 3346
▁passi 3347
▁less 3348
".[37 3349
tory 3350
▁Eli 3351
egend 3352
▁Mary 3353
nted 3354
▁Bes 3355
▁Hard 3356
90 3357
.[28 3358
49 3359
ules 3360
rus 3361
zon 3362
,[39 3363
burg 3364
▁Sch 3365
elf 3366
AG 3367
0– 3368
▁prove 3369
▁de 3370
ings 3371
ge 3372
lan 3373
RM 3374
▁Gu 3375
▁Fine 3376
▁multipl 3377
MP 3378
▁genera 3379
ret 3380
alent 3381
▁5. 3382
▁Aust 3383
▁Ol 3384
perin 3385
RC 3386
▁rev 3387
▁Lan 3388
▁Cla 3389
91] 3390
7][28 3391
lect 3392
yo 3393
rofessor 3394
▁data 3395
▁past 3396
▁206 3397
ostalgia 3398
ially 3399
FT 3400
▁Christ 3401
▁Na 3402
▁Franken 3403
mo 3404
▁port 3405
▁Fr 3406
[30 3407
nne 3408
▁(2 3409
Thi 3410
▁performe 3411
spit 3412
▁Vic 3413
uit 3414
hilanthropists 3415
91][ 3416
bas 3417
Stop 3418
▁$1. 3419
lli 3420
▁Men 3421
▁Compa 3422
pecta 3423
ston 3424
ind 3425
[312][ 3426
▁Ext 3427
▁mor 3428
▁Es 3429
▁Wis 3430
cast 3431
der 3432
▁once 3433
unt 3434
cia 3435
ega 3436
29] 3437
kins 3438
vis 3439
erland 3440
[12] 3441
2020 3442
▁activi 3443
bir 3444
▁da 3445
As 3446
rea 3447
▁Bell 3448
▁2010, 3449
dis 3450
,[10 3451
▁Rod 3452
ef 3453
icketing 3454
▁mis 3455
.[29 3456
za 3457
Philanthrop 3458
idn 3459
pired 3460
▁ad 3461
▁pi 3462
fli 3463
burn 3464
▁Bra 3465
▁ar 3466
▁Wo 3467
ray 3468
▁no 3469
ca 3470
inger 3471
][39 3472
▁stalk 3473
▁Frank 3474
▁gu 3475
▁tr 3476
▁Ear 3477
olly 3478
▁inst 3479
mal 3480
▁Ci 3481
▁long 3482
▁lat 3483
ease 3484
7][3 3485
▁Dev 3486
rim 3487
gest 3488
,[52 3489
▁Cam 3490
reco 3491
[279] 3492
▁au 3493
rse 3494
lso 3495
▁form 3496
▁Si 3497
8). 3498
33 3499
arly 3500
ele 3501
2][4 3502
Te 3503
▁Gi 3504
An 3505
▁Ful 3506
▁ec 3507
wi 3508
,[26 3509
▁Zac 3510
lines 3511
5,000 3512
▁Sim 3513
▁Lis 3514
▁tra 3515
arn 3516
securities 3517
▁releases 3518
55] 3519
lag 3520
▁bri 3521
eff 3522
tha 3523
30 3524
Bo 3525
text 3526
hu 3527
hen 3528
▁lo 3529
ssed 3530
7- 3531
0][5 3532
▁Whe 3533
▁Celeb 3534
ta 3535
▁al 3536
lb 3537
63 3538
46][ 3539
loa 3540
dest 3541
od 3542
.[56 3543
.[40 3544
,[14 3545
topp 3546
▁Ze 3547
3][3 3548
nks 3549
93 3550
oems 3551
ars 3552
▁bon 3553
▁appear 3554
owes 3555
▁Sei 3556
[22 3557
state 3558
rian 3559
ala 3560
nnounce 3561
fall 3562
▁Myl 3563
▁care 3564
ign 3565
mone 3566
igure 3567
Ol 3568
ages 3569
56 3570
[55 3571
lentine 3572
ak 3573
law 3574
▁launche 3575
enn 3576
▁37 3577
▁intel 3578
ider 3579
TA 3580
▁bec 3581
cro 3582
▁aid 3583
ety 3584
▁proper 3585
pri 3586
▁Die 3587
▁communi 3588
Luca 3589
▁Fit 3590
▁Ve 3591
▁Care 3592
lla 3593
6][4 3594
mage 3595
▁Feed 3596
nac 3597
ory 3598
39 3599
22" 3600
eep 3601
amor 3602
▁stru 3603
▁Tamar 3604
".[21 3605
uest 3606
era 3607
amp 3608
omplex 3609
ollaborat 3610
spi 3611
Ar 3612
392 3613
kers 3614
Di 3615
gg 3616
lus 3617
br 3618
ented 3619
tric 3620
9][ 3621
▁Web 3622
sed 3623
lief 3624
[29 3625
97][ 3626
mber 3627
rley 3628
▁Tu 3629
umulat 3630
[11 3631
omedy 3632
▁Bar 3633
▁see 3634
stand 3635
itz 3636
mine 3637
▁Int 3638
Ren 3639
areful 3640
liner 3641
igning 3642
▁Communi 3643
▁Sla 3644
vant 3645
rnal 3646
▁Sl 3647
nua 3648
alie 3649
anz 3650
bert 3651
▁BR 3652
med 3653
),[2 3654
2). 3655
,[36 3656
[35 3657
82 3658
mina 3659
ks 3660
▁Acc 3661
mad 3662
▁gr 3663
37. 3664
yl 3665
".[29 3666
.[41 3667
[6 3668
▁Petr 3669
imberl 3670
▁Work 3671
[18 3672
nal 3673
▁fourt 3674
▁Tra 3675
▁Il 3676
▁litera 3677
38][ 3678
vy 3679
▁por 3680
▁Cit 3681
▁Chang 3682
bound 3683
atus 3684
press 3685
▁Pu 3686
nake 3687
ide 3688
[234] 3689
eeting 3690
1). 3691
pho 3692
▁par 3693
▁dy 3694
▁Edi 3695
".[ 3696
og 3697
In 3698
][34 3699
▁Dit 3700
0,000 3701
tting 3702
Swifties 3703
▁Peter 3704
2024) 3705
▁leav 3706
▁Wan 3707
▁Pai 3708
blish 3709
tics 3710
▁cl 3711
.[248] 3712
ptic 3713
Arc 3714
▁Lau 3715
▁tale 3716
nner 3717
▁100.[ 3718
▁wi 3719
][487] 3720
coustic 3721
end 3722
lou 3723
5. 3724
][60 3725
▁entrepreneur 3726
▁Becom 3727
ctor 3728
▁Ask 3729
aul 3730
99 3731
54 3732
view 3733
".[36 3734
▁Mul 3735
▁perc 3736
ime 3737
erman 3738
94][ 3739
produce 3740
2009 3741
gram 3742
pr 3743
tte 3744
spiri 3745
vi 3746
▁Doc 3747
tro 3748
music 3749
duct 3750
album 3751
Ev 3752
49] 3753
▁(2013 3754
018 3755
04 3756
write 3757
▁200, 3758
15] 3759
dmir 3760
nce 3761
ore 3762
▁Sm 3763
Year 3764
zia 3765
▁$12 3766
▁Gal 3767
▁Beyonc 3768
19 3769
▁celebr 3770
beca 3771
Li 3772
▁Entrepreneur 3773
[28 3774
country 3775
Did 3776
1989 3777
8. 3778
67 3779
last 3780
5][52 3781
▁poe 3782
chievement 3783
release 3784
Nashville 3785
▁100. 3786
▁Sto 3787
▁Conte 3788
2015 3789
alists 3790
US 3791
direct 3792
Style 3793
America 3794
ave 3795
2008 3796
200 3797
Polic 3798
▁appro 3799
Forbes 3800
Folk 3801
form 3802
instrument 3803
nstitution 3804
$1 3805
term 3806
Move 3807
2010) 3808
Blue 3809
People 3810
Part 3811
▁Cl 3812
Mick 3813
▁Age 3814
Visi 3815
mp 3816
Power 3817
ct 3818
58 3819
96 3820
Fift 3821
dio 3822
Academy 3823
sister 3824
46 3825
Let 3826
▁artistsS 3827
four 3828
[33][ 3829
professional 3830
Age 3831
pandemic 3832
InStyle 3833
▁domina 3834
was 3835
Wiki 3836
twang 3837
Picture 3838
world 3839
John 3840
intimacy 3841
Interview 3842
concern 3843
performances 3844
Sta 3845
birth 3846
Canad 3847
Paul 3848
millennial 3849
Kyl 3850
singles 3851
Hannah 3852
Ex 3853
ves 3854
Universal 3855
Musicians 3856
influence 3857
inspir 3858
through 3859
opper 3860
Liz 3861
Press 3862
View 3863
▁Spot 3864
Feminis 3865
selli 3866
Origin 3867
Heart 3868
Women 3869
Again 3870
Sales 3871
Open 3872
executive 3873
AMAs 3874
izzo 3875
▁(2012), 3876
▁stand 3877
NME 3878
LGBT 3879
can 3880
raise 3881
Up 3882
supported 3883
Over 3884
Ready 3885
Better 3886
mented 3887
Highest 3888
genre 3889
Abou 3890
Out 3891
multi 3892
know 3893
▁tak 3894
▁BM 3895
Christian 3896
▁Cross 3897
Kell 3898
iograph 3899
nominat 3900
month 3901
videos 3902
2022 3903
uel 3904
pi 3905
Off 3906
Song 3907
Brad 3908
Sam 3909
▁Lat 3910
rall 3911
Em 3912
Stud 3913
extend 3914
emotional 3915
changed 3916
raduat 3917
bb 3918
atric 3919
versatil 3920
want 3921
–9 3922
pu 3923
offic 3924
396 3925
cor 3926
rock 3927
laborate 3928
fel 3929
▁supporte 3930
title 3931
phone 3932
▁Achieve 3933
Jon 3934
eud 3935
mag 3936
left 3937
Cont 3938
List 3939
▁Fran 3940
Vote 3941
TR 3942
Span 3943
songs 3944
rang 3945
directed 3946
stic 3947
One 3948
TI 3949
far 3950
▁Dec 3951
conte 3952
Will 3953
Lo 3954
Boy 3955
dominat 3956
▁offic 3957
tribute 3958
type 3959
▁52 3960
ocument 3961
9][1 3962
▁Label 3963
▁accolade 3964
▁account 3965
▁victim 3966
▁Midnight 3967
Celebrat 3968
▁Dream 3969
gistration 3970
▁nomination 3971
claim 3972
▁refu 3973
▁Rac 3974
▁Cli 3975
believ 3976
Bi 3977
Rem 3978
profi 3979
abl 3980
cc 3981
some 3982
".[33 3983
onnects 3984
.[53] 3985
▁floo 3986
brea 3987
▁Blu 3988
foun 3989
Live 3990
ppin 3991
▁Beyon 3992
olida 3993
sure 3994
▁portra 3995
ago 3996
uditorium 3997
Pri 3998
▁positiv 3999
▁surpris 4000
Caro 4001
▁Zo 4002
iz 4003
bec 4004
86. 4005
respect 4006
▁millenni 4007
.[63 4008
weetheart 4009
73 4010
▁narrat 4011
▁matur 4012
tistic 4013
ators 4014
ferences 4015
Hu 4016
▁Signat 4017
),[ 4018
ands 4019
cott 4020
writ 4021
icit 4022
Liv 4023
eputation 4024
▁Surviv 4025
▁Influen 4026
culated 4027
uperstar 4028
▁Kni 4029
ttribut 4030
illboard 4031
▁educat 4032
▁Regist 4033
Brook 4034
bandon 4035
▁tele 4036
▁Excellen 4037
remiere 4038
earless 4039
▁accompan 4040
mportan 4041
urpasse 4042
ridge 4043
▁respon 4044
ampaign 4045
▁Perform 4046
depend 4047
roductions 4048
ntimacy 4049
enuine 4050
▁philanthropi 4051
lationship 4052
▁Collaborati 4053
scribe 4054
▁Electro 4055
▁Discog 4056
Sweet 4057
respond 4058
uinn 4059
Expl 4060
▁spoke 4061
lications 4062
▁premi 4063
curi 4064
▁Domin 4065
▁Exper 4066
▁Goo 4067
gham 4068
449 4069
ccup 4070
469 4071
haracter 4072
cross 4073
ization 4074
vocat 4075
▁(2011) 4076
nstruments 4077
▁emp 4078
▁styl 4079
iddle 4080
▁cata 4081
▁contemporar 4082
500 4083
▁$500 4084
rticle 4085
peare 4086
Bra 4087
▁emo 4088
▁organi 4089
▁Fun 4090
397 4091
temp 4092
▁anti 4093
▁swee 4094
macy 4095
▁NY 4096
303 4097
▁disc 4098
▁Exc 4099
ommercial 4100
TV 4101
aplan 4102
ogra 4103
respective 4104
str 4105
lue 4106
tude 4107
redators 4108
.[593] 4109
408 4110
▁Patt 4111
amous 4112
ummer 4113
[59 4114
▁Mak 4115
▁Refer 4116
622 4117
0,000.[ 4118
▁Anton 4119
▁Busi 4120
vision 4121
1989" 4122
▁demo 4123
▁count 4124
ween 4125
ident 4126
guin 4127
▁perf 4128
[245] 4129
ami 4130
▁Swee 4131
Ali 4132
73] 4133
cture 4134
entation 4135
wyn 4136
▁cul 4137
hael 4138
torytell 4139
▁Comm 4140
▁deb 4141
volv 4142
hron 4143
ED 4144
9][2 4145
ience 4146
cation 4147
Luc 4148
▁Unde 4149
fr 4150
▁inform 4151
▁mono 4152
elps 4153
etty 4154
org 4155
4) 4156
Ver 4157
arten 4158
2023 4159
3– 4160
cut 4161
cism 4162
▁Game 4163
▁sue 4164
▁2008.[5 4165
[13 4166
▁Stra 4167
mez 4168
els 4169
writers 4170
amin 4171
ication 4172
raj 4173
▁sec 4174
vil 4175
▁des 4176
019 4177
▁Pi 4178
▁Chic 4179
▁(201 4180
▁lau 4181
▁Harb 4182
useum 4183
,[50 4184
egistration 4185
ese 4186
hop 4187
ern 4188
alism 4189
▁Jac 4190
68 4191
09 4192
▁Deb 4193
▁Gl 4194
llion 4195
ogy 4196
listen 4197
ities 4198
60 4199
SN 4200
mination 4201
0; 4202
24. 4203
take 4204
1.[2 4205
▁impo 4206
▁Prov 4207
▁plat 4208
eginning 4209
awa 4210
▁conv 4211
lariz 4212
etta 4213
olu 4214
▁ski 4215
ighs 4216
Mic 4217
tner 4218
Ten 4219
escent 4220
riti 4221
.[355][ 4222
oration 4223
bu 4224
rote 4225
586 4226
▁Master 4227
uture 4228
▁Em 4229
neur 4230
▁Lou 4231
▁Ric 4232
▁Relati 4233
ollout 4234
produc 4235
gni 4236
11–2 4237
Man 4238
▁Kno 4239
lections 4240
▁Alb 4241
Wal 4242
onquer 4243
▁Gold 4244
10][ 4245
▁Stud 4246
uments 4247
nation 4248
▁econom 4249
cell 4250
enres 4251
▁share 4252
6][37 4253
▁nin 4254
overs 4255
▁Offic 4256
▁Lor 4257
▁let 4258
1-3 4259
okes 4260
▁Nin 4261
▁Liv 4262
aph 4263
127 4264
[53] 4265
▁Gol 4266
▁Fri 4267
17][31 4268
RA 4269
▁instrument 4270
▁Jun 4271
cen 4272
AC 4273
wif 4274
To 4275
▁spa 4276
IA 4277
▁reg 4278
potlight 4279
▁Pola 4280
▁Clo 4281
hoo 4282
leb 4283
500,000 4284
▁am 4285
ssions 4286
▁intern 4287
▁Jam 4288
ntras 4289
▁2020.[ 4290
ions 4291
▁2022.[2 4292
eams 4293
ness 4294
▁res 4295
▁Emm 4296
▁Entr 4297
[61 4298
yle 4299
bl 4300
istry 4301
507 4302
▁Stan 4303
ote 4304
▁stor 4305
).[4 4306
▁arc 4307
03 4308
stitution 4309
love 4310
imate 4311
▁Folk 4312
▁si 4313
▁Part 4314
Bett 4315
Mart 4316
clu 4317
ael 4318
jects 4319
Gra 4320
Dis 4321
▁ear 4322
▁sc 4323
▁Feat 4324
isti 4325
▁o 4326
ress 4327
oke 4328
urni 4329
Cardi 4330
▁visi 4331
philanthropistsA 4332
▁techn 4333
annin 4334
olden 4335
▁contra 4336
tail 4337
▁Cai 4338
ivot 4339
504 4340
ockt 4341
ssive 4342
esearch 4343
hda 4344
▁relat 4345
▁(6 4346
▁wit 4347
tiqu 4348
▁cor 4349
▁Hol 4350
2012) 4351
crow 4352
mba 4353
Tom 4354
fficial 4355
ectors 4356
trip 4357
rary 4358
▁gi 4359
car 4360
▁Mil 4361
gers 4362
yal 4363
Ring 4364
reme 4365
umb 4366
".[34 4367
[304] 4368
Wer 4369
down 4370
Ph 4371
Bru 4372
ishing 4373
▁Sec 4374
▁spe 4375
ems 4376
▁Rele 4377
7][26 4378
onse 4379
); 4380
ecor 4381
Are 4382
ician 4383
gr 4384
▁Bl 4385
elod 4386
▁fli 4387
every 4388
-1 4389
▁ep 4390
▁roa 4391
▁n 4392
ham 4393
mance 4394
▁Read 4395
llin 4396
[24 4397
orme 4398
mics 4399
Mo 4400
stardom 4401
friend 4402
ivers 4403
▁head 4404
int 4405
▁Sup 4406
review 4407
rious 4408
eful 4409
▁Nu 4410
▁Tribu 4411
▁prote 4412
eam 4413
fer 4414
▁Any 4415
▁ten 4416
nderson 4417
▁Nas 4418
▁aut 4419
nco 4420
16 4421
Sil 4422
▁fla 4423
▁Hil 4424
chet 4425
spir 4426
ariety 4427
nduct 4428
▁Mid 4429
".[50 4430
▁TI 4431
▁book 4432
376 4433
▁Yo 4434
Artists 4435
mani 4436
radi 4437
▁playe 4438
▁interv 4439
ower 4440
▁alt 4441
▁qu 4442
ocel 4443
uda 4444
aven 4445
sley 4446
▁sho 4447
▁conve 4448
ek 4449
havi 4450
ssue 4451
lock 4452
▁Sava 4453
da 4454
imon 4455
raged 4456
pens 4457
Ant 4458
51 4459
Fas 4460
serve 4461
inte 4462
ined 4463
Ca 4464
isha 4465
ened 4466
▁dar 4467
urt 4468
rett 4469
hurch 4470
▁Shor 4471
nning 4472
ois 4473
Au 4474
[46 4475
▁inc 4476
ial 4477
format 4478
ho 4479
atch 4480
esult 4481
▁Mom 4482
tob 4483
main 4484
rill 4485
ihan 4486
bor 4487
▁Colli 4488
ught 4489
▁Ni 4490
▁Juli 4491
31 4492
hy 4493
fo 4494
.[44 4495
xpress 4496
blishe 4497
onate 4498
gin 4499
lips 4500
ished 4501
ris 4502
ren 4503
▁Enc 4504
orse 4505
▁stam 4506
▁tru 4507
minat 4508
▁Rot 4509
▁Sa 4510
sha 4511
hape 4512
ins 4513
ault 4514
▁cate 4515
▁Wil 4516
▁directi 4517
reeting 4518
▁Mur 4519
ssing 4520
▁$5 4521
▁bet 4522
ans 4523
nivers 4524
ead 4525
▁ori 4526
Der 4527
25 4528
alist 4529
eadlin 4530
ommunity 4531
04][ 4532
tatus 4533
tour 4534
time 4535
▁Gr 4536
[22] 4537
py 4538
omething 4539
ision 4540
ances 4541
rman 4542
▁(2018). 4543
▁Ster 4544
sult 4545
hes 4546
tandard 4547
ues 4548
park 4549
ope 4550
28 4551
ue 4552
10. 4553
;[4 4554
uot 4555
tive 4556
ww 4557
led 4558
than 4559
chel 4560
ians 4561
plained 4562
72 4563
Bl 4564
▁Hid 4565
gent 4566
lbo 4567
,[57 4568
seu 4569
▁(" 4570
ional 4571
exist 4572
ira 4573
tor 4574
hl 4575
enj 4576
ort 4577
▁Mos 4578
▁Ram 4579
ock 4580
cho 4581
▁gl 4582
elief 4583
ebr 4584
rb 4585
rk 4586
▁Ph 4587
8][27 4588
ntic 4589
▁ide 4590
▁$75 4591
Con 4592
osses 4593
▁Rema 4594
▁hi 4595
tatement 4596
min 4597
[39 4598
,[40 4599
▁Serv 4600
ulti 4601
sse 4602
kee 4603
olog 4604
nsky 4605
17- 4606
road 4607
▁Lif 4608
[62 4609
▁medi 4610
Eve 4611
2018 4612
▁State 4613
hey 4614
▁Ani 4615
▁Tro 4616
▁Del 4617
▁Cont 4618
Doll 4619
ras 4620
,[12 4621
020). 4622
452 4623
osse 4624
par 4625
erts 4626
69][ 4627
▁Dia 4628
Ra 4629
▁cha 4630
ives 4631
mic 4632
oods 4633
iti 4634
arker 4635
markin 4636
llaborat 4637
ga 4638
cke 4639
ache 4640
▁k 4641
▁expe 4642
ines 4643
tney 4644
,[44 4645
63] 4646
Pu 4647
▁Cas 4648
yk 4649
usicologi 4650
▁fe 4651
▁stre 4652
▁Ring 4653
even 4654
lu 4655
uch 4656
nstag 4657
▁hol 4658
▁Fo 4659
passion 4660
▁Jad 4661
ffe 4662
ule 4663
yt 4664
ara 4665
ander 4666
.[31 4667
–2 4668
▁pre 4669
ewed 4670
ecording 4671
▁Frie 4672
ull 4673
Ticket 4674
][5 4675
sday 4676
▁Wy 4677
mak 4678
anship 4679
Sm 4680
0- 4681
▁hel 4682
ere 4683
▁mar 4684
▁gro 4685
.[7 4686
▁(2014). 4687
▁corre 4688
▁Cri 4689
▁1. 4690
157 4691
tone 4692
ding 4693
nth 4694
urne 4695
▁prom 4696
▁too 4697
▁stra 4698
ingers 4699
ournalists 4700
sity 4701
▁pri 4702
▁Bren 4703
av 4704
verything 4705
lley 4706
▁deta 4707
▁Hor 4708
▁Fig 4709
▁chan 4710
lists 4711
stop 4712
ork 4713
Tr 4714
IM 4715
tations 4716
ash 4717
formation 4718
sign 4719
Tw 4720
▁TennesseeS 4721
Ri 4722
Fi 4723
times 4724
▁Fai 4725
▁Wi 4726
pte 4727
26 4728
iss 4729
▁Alw 4730
uitarists 4731
▁Wors 4732
Conne 4733
ics 4734
oss 4735
▁mem 4736
til 4737
.[17 4738
iden 4739
rump 4740
ph 4741
▁Dav 4742
tes 4743
▁Coo 4744
akes 4745
ason 4746
avo 4747
ava 4748
eas 4749
net 4750
522 4751
lecti 4752
ehl 4753
ony 4754
tan 4755
Tear 4756
4.[4 4757
▁Ros 4758
rvin 4759
uss 4760
nsecurities 4761
voi 4762
▁Cr 4763
nz 4764
neu 4765
▁exc 4766
lent 4767
rok 4768
nn 4769
ons 4770
ief 4771
ped 4772
ain 4773
sively 4774
▁pat 4775
blo 4776
79 4777
▁jo 4778
▁Ang 4779
23. 4780
▁1989. 4781
▁sup 4782
ix 4783
–202 4784
▁wel 4785
lies 4786
ann 4787
li 4788
▁na 4789
isting 4790
trum 4791
orn 4792
ming 4793
▁Hea 4794
sing 4795
021). 4796
ees 4797
▁sch 4798
ron 4799
cks 4800
][3 4801
tings 4802
▁Coll 4803
614 4804
▁Tw 4805
rts 4806
stag 4807
fl 4808
ast 4809
rack 4810
▁Cy 4811
▁Ye 4812
▁1989, 4813
▁Par 4814
hous 4815
gy 4816
gel 4817
▁sig 4818
38][3 4819
icia 4820
roy 4821
edding 4822
factor 4823
▁ope 4824
.[12] 4825
lood 4826
anna 4827
treaming 4828
sses 4829
Set 4830
▁rel 4831
ild 4832
▁stu 4833
appe 4834
ones 4835
[47 4836
lls 4837
▁vers 4838
rite 4839
nni 4840
Z 4841
q 4842
$ 4843
( 4844
▁Kr 4845
